111111110011010010110000000100110111001100000000111110010101000000000010001001100000000001111011011111111111000100000101000000001101101011100000000100000011000011111111111001110010000000000010101110010000000011100001101100000000110111101000000000001100111001111111111111100100100111111111000000101101111111101110011110100000000001110100101111111111110011011100111111101110101010110000000000001100001100000000111100010100000000010000110110000000000000000110010000000000110101111111111111110000000000000000000100000000000111111111000001011101111111111100010111010000000011100010100111111111101001111010111111110010111111010000000010100011000100000000101110100011111111111100100110010000000100110011010100000000100010111011000000001011101000010000000001111100100111111111100011110100000000010000000110100000000001100000111011111111001000001000000000010010100111000000000000101101111111111111001101111001000000001001011000101111111101010110110100000000000100110100000000010000001110110000000100001111111100000000111001110101000000001011000001010000000100110010111100000000110011111110111111110101000011111111111011011010011100000000000011001000000000000110100011011111111110111111010111111111101110100110111111110001110011101111111110110100100100000000111111111010111111111000011010001111111100000101010000000000011001111111111111111101001100101111111100101000011111111111101011100001000000001000010010001111111011001010101011111111101010011000000000001101101110000000000001011110000100000000111100000010111111110111101101001111111101010110000111111110111111000111000000010001001110100000000000110110010000000001001001001110000000001101110111111111111111111000111011111111100100101111000000000100100000110000000010110111001100000000111110001111000000001101111000110000000001110110000100000000110111111000000000000100111001111111111100100100001100000000001000000011111111111010101011000000000100000101111000000000100101100011111111110100001111000000000010100101101100000000000110001101000000000010010001010000000001001111110100000000001000011111000000000001011111001111111011011010101100000001001100101100000000001111100001001111111101101000011011111111011101000011000000010001110111011111111011110001011100000000101101000110111111110100111010101111111011001111111100000000001111110010111111111011101000100000000010011101101011111110111010001011000000001000010100100000000011101010110100000001000111101001111111111100001001101111111100001011111111111110110111010100111111111110010000101111111111001000011000000000011110000100111111111000000111011111111100110001110000000000010101100000111111110111100000101111111101111010101011111111001010111010000000001110100000101111111111001111111000000000100100111000000000001001101000110000000000000010000111111111100110100010111111111000010001011111111101000111001100000000010111000101000000001001000001110000000100110000000100000000110000110110000000001011110000010000000011110001010000000000011111010001111111111010111010010000000000101010100011111111111000101111111111101111001000000000000000110111101011111111001000011011000000010010011000111111111111011001111000000001001101110010111111101111001000001111111011110001111011111111000101010011111111101101010000100000000001010001101100000000111001000111000000001001111000001111111111010111101111111111100111101101000000001110100011000000000100101001110011111111001001110011111111110011001100110000000000001101111111111111100111111000111111111111100000011111111101101010110111111110111011001010111111110000010001000000000011010010101111111111101110010010000000000010011011101111111110011100010100000001001000111000000000001100100111011111111110010101111111111111011100001111000000000101000010111111111100110011110011111111111110111000111111101100101010001111111110001011001100000000110101000111111111111101110001101111111111000001011100000000111011011001000000000110100000001111111100001000001111111111011000110011111111110111100011011111111100001001100011111111110110111110111111101101100010101111111111110110101000000000101011101001111111110100110101010000000100100010000000000000100110010100111111101111010001011111111101000111011100000000110111101000000000000000110001110000000001101110100100000000010000100100111111110011110000100000000011100111110000000001000000000001111111101100101111101111111011100001011111111111100011110100000000000111100010010000000100110011111111111111011011000100000000000110011100100000000011110100101100000000110110101000111111111011010010101111111101110101000000000000010001010111000000010001101100000000000011101011100111111111000111000001000000010011000011101111111111111111011111111111000100111001111111111111100100011111111011101001011000000000011011000010000000001001000010011111111111111111110111111111010100011100000000000110001000110000000000011010001000000000110111010101000000010000001110001111111100100001001011111110111101000000111111110011111000010000000011010011001011111111101101001110000000000101000010101111111101010101110011111111001111100111000000001001000110111111111110000000111000000000011110001110111111111000000011000000000011000101001111111110110101011010111111101110100010011111111101011110111011111111011000101000000000000011111110110000000001100100111100000000001001000011000000000010000000110000000010010110110011111111101011101000000000001100010000111111111100100101101011111111101110000011000000000000000101101111111011101110011111111110111001111111111111110001111011000000000011101001111011111110111010011110000000000111011001011111111111110101000000000000011100101001000000001000101101101111111110100111010111111111110100100000111111110100000110000000000000001100010000000000011011101011111111111000000100011111111100110110001100000000001001111101000000001100101101011111111110010000110100000000110100100001111111111111100101110000000001101010000011111110111110001100111111111111000101000000000011010111101111111111011000100111111111110000011001000000000011111000011100000000110110010000000000001100010100101111111101110111011111111110110100101100000000001101011001110000000010010001000011111111001101000110000000010010000110110000000001110101111100000000110000000100111111110110011110101111111011010000001111111111110010001110111111110001000111110000000011011000100100000000000100100011111111110000001010011111111011111110111000000001000110101011000000001111000100100000000010000101110111111111001110111110111111110001111101000000000001000011000011111111001000011010111111110111111111100000000010100100011000000000101100011011111111110011010110000000000010100000100011111110111111010100000000000001000110010000000000101000100111111111010001111110000000000001100100100000000011111101111000000000100110001100000000000111100111011111111111101110001000000000011111110111111111101110010111001111111101011110001100000000111001101000111111110000001000100000000100010101111100000000000111011101000000000001000110001111111111000011001011111111011000000010000000001110100011101111111111100011010111111111001111011011111111110010101011010000000010001110010111111111101110010000111111111111011001011111111111000111110000000000010110011010111111101111011000110000000010101100010100000000000101111100000000001101110001010000000011100101101111111111100000011111111111111111011010100000000011111011110000000000000100011111111111110100100010101111111110010011000000000000111110000011111111111011111111000000000010110101010000000000001001010011000000001001110011011111111011110100010000000000100100000001111111111001001011001111111111000110111000000000000010001110000000000011110101110000000000110011101100000000000110110110000000000001101111000000000010011000101011111111000000111110111111110001110000001111111111111110110100000000110011000110000000001100110111010000000000101101000111111110111000100101111111110010011000101111111111000001110100000000111000000010000000000101001010011111111110100100000111111111110000001101111111110010101011100000000000000100010000000001000001111101111111111111101111000000000011100100111011111111000010110110111111111010111000010000000100110111101100000000111001001000111111111100101011111111111011110000010000000001001101010011000000000100111101001111111111011100101011111110111100100011111111110010011000011111111100111001111111111111010010011100111111111111011010111111111111000110101111111111010001110110111111101110000110011111111110111000001000000000101110000000000000001101100010000000000001010011110000000000111011011111111111101100011111001111111100010110101100000000011110111010000000010011011100101111111011110111101011111111100100011101000000000011010111000000000000101010010100000000111110011101111111111010100001000000000000110010110000000000001010001010111111111111111001000000000000001100011011111111011100001001111111101110010101011111111101110001000000000000110101111000111111110110010110100000000100110010101100000000011110010000111111111100010101010000000010100010001000000000101110000100111111111001110110010000000001011000010000000000100101111011000000000011111101110000000100100010101111111111110100001010000000001011011111000000000001110101010011111111010101001101111111111110100110001111111100100100111111111111111010010001000000001111111100111111111110000100010011111111110000010001111111111000101010111111111101101100110011111111010000100011111111101100101011100000000000001100110111111111110101011110111111101111101011011111111100110110000011111111000110110101000000001000010101101111111111000010100011111111101110110110111111101111100001111111111111011100111111111111000001000001000000001001100100100000000100000001110111111111000011010011111111101100111011000000000010000111100100000000110110001111111111111111010101110000000010010100010011111111110010100000000000001000010100000000000000010110101111111111000011010010111111111110000101110000000001111100001111111111101111011101000000000000001100100000000010111101101000000000000000001001000000000001010011110000000000110101100111111111000110101010000000001110101101110000000011101111010011111111010100001100111111110100111001101111111101111011010100000000001110100101000000000111010011000000000100010001110011111111111011110011111111110101100100110000000000101001010000000000000100111101111111110110000100000000000000111110000000000000111010001011000000000011000010010000000000111110110011111110110100110100111111111010100011111111111101000110100111111111000101101101111111110010010010010000000000001010100100000000011000001001000000001111011000101111111110110001010011111111011011000111000000010001001101001111111110110010100100000000010111111001111111111110010110001111111011110100001000000001001011000011000000010011000100110000000000010010000111111111000000001101000000010001011110011111111110111101101111111111010100011111111111111110111100001111111011011111000111111111111101100100000000000101000101001111111100110011011000000001000011101111000000000111100111000000000100101111111111111110110111110010000000001001001001100000000001100010000100000000111001011100000000000111111001101111111011010101001100000000011101110000000000000011001100011111111111110110100111111110110011111001000000001100001000111111111110111010001000000000010101111000000000000000110111000000000100000000111000000001001101110001111111110101110111100000000000100001001000000000110011000000111111110000111101000000000000110010001100000000010100001011000000000011101101110000000011001110101011111111110101101001111111110101000000110000000010101010110011111111101110100001111111111111101010111111111101111010000011111111100101000111111111111101011010101111111101011011010000000000000110101110111111110001111001011111111110101100101000000001001001110111111111110111111100000000000001110000111011111111101010111101111111111000010110101111111111001110011100000000000011111110000000001010100000100000000000000111111111111111011111110010000000000010001001101111111111000010110100000000000010110010111111110100000000010000000000110011100011111111011000010101000000010001001110001111111100100010100111111111100110001100000000000110001000010000000000001111101011111111111101000101000000001001110010111111111101000111011111111111111010010111111111111110001110101111111111100111010000000000101110110110111111101110000101111111111110101000000100000000001100111011111111111011001011101111111110001111001000000000011110100001000000000110011001101111111111010110101000000000010011101011000000001011011100000000000011101101011000000001001010111111111111110010011011010000000100010011100011111111111000000001000000001011101101000000000011011000100011111111010111010000111111110110101010111111111100111110110111111111001010111010111111110101010111010000000100100110100111111111001001111110000000001101010100110000000000110010100100000000101101010100000000000101010011100000000010010000110111111111011001011010000000001111100101100000000000110001111111111111000001011010111111111100010000111111111101111111001000000000010000110110000000000100001010111111111011001001010111111111010001001100111111110010101110001111111101100101100011111111101111100101111111101110111100111111111111011101010111111111111010110110111111110100100100001111111111100100011111111111011101110011111111110110011110110000000000001101000100000001001000101001000000000111101000100000000000101111010000000000110011110111111111110101001101110000000011011111100000000000011011101110000000000100000110101111111101100110100100000001000001001100111111101110100011001111111101011110010000000000100101100001111111111100110010110000000001011011000100000000010011110111000000000000101010000000000100110111010111111111010010001100111111110101110100110000000000010101010100000001000011010000000000001001111000010000000011100010101011111111101100111110000000001001001010110000000010000101111111111111011011100000111111111001001011111111111111100111101011111111001000001110000000000010110001110000000100110101011100000001001010111111000000000000101111010000000010101101011111111110111000100011111111110011001110001111111101000111010100000000011001011010111111110001110101010000000000000001011011111110111110100011000000000100101110001111111111010100111000000000101000000100111111101100110001001111111011101110110111111111011111001001000000000101001011001111111101110110101011111111111001100001111111101110100100010000000010100100010000000000010011000111000000000110001111010000000011000110100000000000101000011010000000000011000001011111111111011001000000000000011100110100111111111010010000010000000010111101100111111110110011111101000000001111111000000000000100011111111000000000110010001010111111101110001000100000000000101000110000000000011110100111111111111010100101000000000010001101100111111111101110000010111111110100101010001111111100100001011000000000010001111001000000001000101010010000000000001101110000000001000011001101111111111011001001011111111111001010011100000000111100100111000000000110111110010000000011111000111000000000000100001000000000010010001100100000000000110100001000000000001011100001000000000111010110001111111100111010000100000000111011001001000000000110100110101111111111110011111000000000000100101111111111101110101100101111111111011110111000000000011101110111111111111110101110001111111111011010000011111111110011000100111111110011000000101111111101010000101000000000010101001001111111111010001000000000000011111101110111111111110111010111000000001111010100001111111101001010001100000000011100011011111111101110011110111111111111110110111100000000001110000011000000000000011111110000000001011001001100000000101010000000000000000001101001010000000001101110100111111111111100001011111111111010101100101111111011001100000011111111010100101000111111111000101100110000000100101111000111111111110100101110000000001000110110100000000000010110011111111111100011000000000000010001101111100000000010111001100000000000111110001101000000000000011011111111111111100110111011111110111100101101111111101101111111000000000011100010101111111110111001110010000000000011011101110000000100010000110000000000101111111010111111110001011000101111111100001000001100000000011011111110000000000010110100110000000010101101111000000001001011110010111111111110010010000000000000101000100000000000011000010110000000000111110110101111111101101101110111111111000111111101000000000110001100001111111011110101000011111111110100111000111111111101101010110000000000001011011000000000100010101100111111111001101010011111111110110100110000000000100101010010000000010001101111001111111100011100111011111111010100100100111111111001000001011111111101000101011111111110110101001101000000001000100010101111111111000110001111111111001100001100111111111100100010011111111110111011001011111111011011011001000000001110110110000000000010001101011100000000111110111000000000010010011111101111111011001110001100000001001011101000000000000100101000100000000000111011100111111111011111111101000000000011011110101111111100111111100100000000110001101010111111110010110110111111111011111110101000000000110101111100111111111100000011001111111011110000001011111111000111100110000000010010010000011111111011100101001111111111010110000101111111111110010001110000000100011110000100000001000100100010000000010011001000100000000000111111011111111111111111100010000000001111000110000000000011001111001100000001000111111100000000010001111010110000000010110101101011111111101101011011000000000010001001010000000010010100101011111111011111000000000000000010001010011111111110110001111111111111001001010001111111111001100100010000000011111111011111111111111110001010000000000110110110000000000011111000101100000001001010001001111111111001100000010000000100110000100011111111110111010100000000001011001101100000000010000101111011111110111010110101000000000111010101110000000010100101001011111111000011001001111111111101001111000000000011011001011000000000111110101010000000001000010010101111111011010011010000000000011010110100000000000111001011011111111100100110101000000000001101110110111111110100110110100000000001110010101100000000100011010010000000010001111000100000000010001100010011111110111110101010111111111001111000100000000011110010011111111111010111101000
111111110111111000010000000011001011111011111111000011001101000000000110010000111111111101101000001000000001001101001000000000001110010011000000000000100111010100000000101100101111000000001110010011001111111111101000110100000000111000101000000000000010100000010000000001100001100111111111010011110010111111111100000001000000000010100100111011111111001001000001111111111100011011100000000001111111011011111110110010111111111111110001110010111111111011111110111011111111110101001000000000000011011011111111111111011001000111111110111101100110000000010001000110010000000000000001001100000001001010100100000000010000011000001111111011010011001100000000110011111010000000001011010110000000000001010100100011111111100011111110000000001110000101100000000100001000001100000001001010101010000000001100110100011111111100000011101000000000101001000001000000001000010011001111111011101010110100000000101100101100111111110101111110101111111011010110011000000000111000101110000000000100100010010000000100010011011011111111011000001011000000001100000011111111111110110001000011111111101101001000111111101111010101101111111110101010011011111111001100000100111111111100001011110000000001010000100100000000101001101000111111101101001110101111111110001101001100000000111111111010111111111000101001101111111011001001110100000000000001110100000000000111101110010000000001010000010111111111110100001011000000001011000111011111111101011000000011111110111111110100000000000111000101110000000010101101011000000000001011110110111111101100111010011111111110010010101111111110110101110011000000000010011100111111111101001101111011111111001001010010111111111101011010000000000100100001101000000000110111101000111111111011111111100000000010100100110000000000100010101111000000001101111001010000000011100001101000000000100100101111111111111010111110011111111111011101000000000000111010011101111111111010110101010000000001100110010111111110111110010001111111101111111110000000000001010101111111111111000011111111000000010010000111101111111101101110101000000000011100001011000000001011010110011111111111010001010000000001001101111011000000000111001110111111111111001100010000000000101100011010111111110001001100011111111011011101001000000000010011101100000000000110011101111111111110010100100000000000100000110111000000000110010001100000000011110011111011111111110101110100111111111101101000101111111100011110110111111111011100101111111111111100101110100000000010111010001100000000100111101101111111110110110101100000000000110111000011111111000011010110000000000010101110111111111101010111100011111111011010001001111111111000100000110000000011000111011011111111000100100111000000000101011000110000000011111011111100000000110000101010111111111011101001001111111111011111011000000001000010000101111111110110010110001111111101100000010000000000111110111000111111110111101100011111111101000100101111111111000111100111000000001010001010001111111111010101100100000000100000100000111111110111001011100000000100101011011111111111100000011001111111111110101010111111111101001001101000000000000001101011111111101111000011110000000000000110101011111111010111100111000000001010111100100000000000001001100011111111101010010111111111110000110100100000000000001001010100000000111001100111111111110010110101011111111110000000010100000000000010101111111111101100101011001111111100001010011000000001000011110100111111101110000100000000000100100001111100000000000010011100111111110010000000110000000010111001100000000000010111111110000000000111000101111111111100010100110111111111011011101101000000000111001010011111111111010100010100000000001100100110000000000100011010100000000000110101101100000000111000010101111111110100000001010000000011010111111011111111110000100001111111110010010001011111111011110011000100000000001110101000000000000000001110001111111100001011100000000000000001010001111111110010011011001111111011011110000111111110110010110010000000010010010010110000000010011101000000000000010100001111000000001011011110011111111110001100110000000001001001101000111111111101010010110000000010010011101111111111111110101110000000001100010011101111111110001110101000000001001010101000000000001111010010000000000001001101011111111111011111010111111111110110010111000000000010000011000011111111011101111101000000001000101000111111111011010001011011111111000001100111111111110010000110110000000001100110100011111110110111100011111111110101110011010000000100011100111111111110110010011101000000001101100110010000000000111110100111111111011101111011111111110000011001101111111110100101000111111111101101111111111111111111001001010000000001100100111100000000110111111100000000010000111000010000000011110010010011111111111101011010111111111110011010100000000011000110001011111110111100001001111111111010100011001111111111010011101111111111100011101100000000000011111010010000000011011110010000000000111100000111000000010000000001111111111111111001100100000000011011010011000000000001110010001111111110010000101100000000010111010011000000010010110000010000000010111110100111111111001010011101111111110111001111011111111101110000100000000001000110101000000000000110110010010000000000111110001111111111000111110100111111111001111100111111111111101111110111111111001001100100000000001010011001101111111101000000001111111110110110000001000000000010010011110000000100011101011011111111110110110110111111111000101101101111111100100001100100000000010011011001000000001001101000001111111110111000001000000000100000000111111111111000100100111111111011101000001100000001000001110011000000001011111111111111111111110110100011111111110001010111111111110110000011011111111110101000001111111111100111101010000000001101001010011111111110010100001111111111000011110110111111110100010001110000000011111011001011111110111110001011000000000100000101001111111111101110000100000000010000100000111111110111101011011111111101111000001000000000010101001000111111110001001111010000000001100010101000000000011011111010111111110011001100011111111100001000010000000000010010000100000000001110110001110000000001011110000111111111100101101101000000001011111101111111111101100000010100000000101010010110111111111111100011011111111111000001100111111110111100011010000000000111001001010000000010011110100000000000001101000000000000001011110001111111111111100110011011111111000010101100111111101111000000001111111011011000000111111111101011010000111111111111110011011111111110011110110100000000111011101011000000010011001100001111111011010101000011111111011011000110111111110011110010101111111111110010011100000001000101001001111111111100111100000000000001001111101000000001000111000000000000000001001111110000000011000101001100000000100000100101000000000001110000011111111110100010110100000000010001101100111111110111010011101111111111110011110000000000001011100110000000010000011001010000000010101110100000000000110110100000000000001101111100101111111101110000000100000000000100110111111111110111010110111111111011001010000100000001001001101011111111110100111111010000000001001110101011111111100111101001111111111011001100011111111011110000101111111111010111101000000000001111110001110000000011001010011011111111011110111110111111111100001110011111111100010101101100000000011100101001111111111011110100010000000001100011000111111111010100110101000000000001010000000000000010000011111111111110110101001111000000010010010001100000000001110001101000000001000100011001000000000110100110110000000000111100100111111110111101100111111111111000101011101111111011110111110100000000111111110111111111111100010101010000000011001110000111111111000110110010111111110011000000100000000001111100001011111110111010101001000000001100011001001111111110110001111000000000010000000001000000000111100100100000000011100001100011111110110010101101000000000111000010000000000011100100100011111111011111001000000000000010000000011111111101110010001011111111111111100000000000010001101111001111111100111100100011111110111100011000000000000110110001110000000011111101011111111111011110110010111111111011101110100000000010000011111111111111101011101110000000000111011110110000000000010111001011111110111100011000111111110001100111100000000001001000011100000000110100001010000000000010001100010000000010010100011111111110111110111100111111101101001110111111111100000100010011111111101001101000111111110010100011111111111101111001101111111111011010010001000000010010100110101111111011111111101000000000011101101111000000010010100100000000000000001011001011111111110101001111000000001001000111010000000001101011100111111110110010110110000000000111111110001111111111111000000111111110111100110000000000010000001000111111111111111110111000000000001000100101000000001000010011001111111111110111011100000000101011101100111111111011010111101111111101110010000100000000101001000111000000001011000010111111111101010111000100000000001011101010000000001110100110000000000001011010101111111110110100101010000000010011001100010000000100011110110111111110111110110101000000000101010110010000000011000101111011111110111011110100000000001101111011110000000100110100011111111111001111000000000000010000001011100000000011011001110111111111011001111111111111110111111110110000000011011100011000000000110001001110000000001011110100110000000000101111110000000000001000110100000000000110000000000000000000110101011111111111110011111010111111110011111001101111111110111001101011111111111001011001111111110000100010011111111101101001001000000001000101010011000000000101110110100000000100101100010111111111101100110111000000010000111011001111111111010110100111111111101010000111000000001010010011000000000010101000011100000000000010010110000000000100010011101111111011100100011011111111100100011011111111110101010010010000000011111110010011111111000110001100111111101111011111101111111111101101100111111111110100110011111111111110000110011111111011001001100100000000001000100000111111111100110001101111111100100011101011111111001011110011111111110000111110010000000011111000100011111111010001011101111111111010111000001111111110111110010100000000011000000011000000001111110110110000000010110101111100000000011111001011000000001111100001100000000001010111110100000001001001000100111111101101000110010000000011001000111011111110110010010010000000001000111111110000000000001010111100000001001000000111111111101100100010000000000011000101000100000000110100110000111111110101000100011111111100110000010111111111101110101000000000000110000101101111111011100100101100000000100001100111000000001100111011001111111110010000111100000000001111101110000000001100100111100000000011110100100111111111111000001100111111110010101010000000000011110001001000000000110001011011111111110010010000001111111101011111100100000000001110000111000000001001110001110000000000010111110100000000000101111001111111110101001111000000000000000010110100000000110011011100111111111101010110101111111100100101101111111110111110001010111111110100010011101111111011001010111100000001000100111010111111111011100101011111111110000011111011111111001001101100111111110100101110000000000001110011111011111111011110010001111111111011011101000000000010110010110111111110111010111101111111111110010101100000000010011000101100000000100101101101111111101101001101000000000000011010100100000000000011111111000000001011000001010000000100011110111100000000111001000000000000010010101011110000000010110110110100000000110111001100000000010000111001010000000010100001101100000000001011001011000000000000010000000000000011000101100011111111111101110110000000001000001101111111111101001001100011111111010000111100111111110101000011110000000011000101101000000000111010111110111111101100110110000000000010110110111100000000001010011110111111101100110100100000000100001100110011111111000100000101000000000110100000101111111100001111001100000000010110010000111111111100011001000000000000110011110011111111100110001010000000010001000101010000000001110001111000000000111100111010111111110001110100101111111111011111111100000000000011111101111111111001001110000000000001000001010000000000001001100001111111110001000100110000000100101101000011111111000001001000111111101110110001111111111101110001010011111111100110101000111111110000011111011111111101001110110100000000111100011101111111110100001110110000000011001010011111111111010000110111000000010011100000110000000001100101111100000000101010111100111111110100011101000000000010011011101111111111011100100111111111110101111001110000000100100110111111111111110010010000111111110000000110110000000001011001010000000000011101001011111111111000010000100000000010011000011000000000000111010111000000000101011101001111111011111101011000000000010110100010111111111001101110110000000000110001110011111111010111100000111111101110001011101111111011101001110111111111111111001011111111111111110110011111111111110000010000000001001010100010111111110101101011100000000000001100000111111111011010000100111111101101111111111111111100000100011011111111111000000011111111111101100101000000000010110101110000000000010111101100000000001111110111111111111011100001001011111111000110100000111111111011011111111111111100101000100111111111010110101101111111110111110100000000000010111100100111111111001101101100000000000010010000000000000000100110110111111110110111001111000000001111110100111111111011101001101111111111011010001000000000001111011100011111111110110101011111111111110001111110000000000011011110110000000001110110001000000000000001010000111111101101111000111111111011001111111000000000001011011100111111111011001100100000000001000001010000000000111111111011111111111011001001110000000011100111110000000000101011010001111111111001011110000000000001110011011100000000000001100101111111101101011011100000000000001111111111111111100101011001000000010010001111111111111100111101100111111111100001101111000000000101100010011111111101010111101100000000110000101000000000001110101000100000000011010010001000000000100111101110000000001000101010111111111111000010010000000001001010110100111111111011011100110000000010011000100011111111001010000111000000001001001010111111111101010010000100000001001101110110111111110010001100110000000010000010001011111111100100110101111111110111010000011111111110110110001000000000000111011110000000010011001101011111111111011110101000000000101001110001111111110101010100000000000011001111110111111111000110110101111111111111010100011111111011010000101000000001001100001000000000001010100010001111111100000100011000000000010000101110000000010001110011100000000000010111011111111111010101110111111111111010100101101111111101001100011111111111101100111100111111111110000111101111111101001010101011111111001011101100000000000100000110111111111110011101010000000001000101111111111111111100110101101111111011010001110111111111010000000010111111110110111011100000000001011010010100000000001001001111000000000010101000100000000000000000110000000000111110010011000000000011110001100000000011000010100111111110111001001110000000000000000001100000000010011010101111111110111100111100111111110010101010101111111011110011001100000000001110110110000000001001011000000000000010101010100011111110111010000110000000001000101001001111111011111101000011111111101100010001111111110111110010010000000011001010001011111111010000011110000000000101011100100000000010010101000111111110111010000010111111101111000010101111111100011011000011111110110111100101111111110110110110100000000000111001110111111111101101100100111111110101001001110000000000011010000100000000111111000010000000000000100111001111111100111001011111111110111111100010000000010010010100010000000000101100000000000001000111010010000000001011101100110000000010100001101100000000110000001000111111101110101101111111111110011100100000000000100011100001111111110111001100110000000001000000010000000000110100000110000000000011000101011111111100111010101011111111000000111001111111101101001001101111111011111010110100000000111010100111111111111100110001011111111011110101111000000000100001100110111111111011010110011111111100110011001100000001000011011111111111110100111101011111111110001000100000000000001111110010111111111010000010010000000010000111100011111110111001110001111111111110011001000000000000111001001111111111010110110111000000000111111100010000000000001100001000000000100001010010111111101101000001110000000100010110011111111111101111001000111111111000011001001111111110101000001000000000000100011101000000001100000010111111111111010010010111111111010011011011000000000010010000010000000010001100001111111110111001101010000000000010000100110000000011110000111100000000110000110001000000000110001110111111111111111100111000000000000010100001000000001001111001000000000100101101111100000000000010001111000000001100010011100000000010011010000111111111101111100111111111110111110010011111111110011110010000000000001111111000111111110111001110011111111110111110000100000000001011000110111111111100111100100000000000111101010100000000110101111010000000000110101010100000000001000011010111111111101101111000111111110111001000100000000011010010010000000000111011010100111111110000110101010000000011100001011000000000001110000100000000000101111111000000000001000101011100000001001010100110000000000111100100011111111110011001111000000001000000001010000000000111011000001111111111011000110100000000001001101001111111111111011111101111111110011001011011111110111101000101111111110110010000111111111100100010111100000000101111001010111111111011101100101111111101101111001000000000001110011001000000001010001101000000000100011001000111111111001100001001000000010000000011000000000100011110000111111111001011000100111111101111110010111111111101110111000011111110111101011010111111111110011001101111111100111010011000000000101101110001000000001000101011111111111110101100111000000000001111010101111111101111111100111111111011100110100100000000000110110000111111110111110000100000000001110001110111111111000100011111000000001110000000101111111111011011011111111110111010100001111111110001100011101111111101110010010111111110110010000001000000010000011010111111111011011011011111111111110111011001
