11111111111111111111101000001100111111111111111111111010110010101111111111111111111001011001100011111111111111111110011101000011000000000000000000001011010011010000000000000000000110011111000000000000000000000001001001001010000000000000000000100010001000110000000000000000000011011100001011111111111111111110001100100100111111111111111111110010001111011111111111111111111100101011011000000000000000000010010010011010000000000000000000001011011111000000000000000000000100100101100111111111111111111110100111000011
11111111111111111110001011010110111111111111111111111010101100111111111111111111111010110110011011111111111111111101111101100001000000000000000000000111110001010000000000000000000011100101110011111111111111111101100101010110111111111111111111101111111111001111111111111111111100010101111100000000000000000010000010000011111111111111111111110010011101001111111111111111110110100000101011111111111111111110010110110001111111111111111111100001011011101111111111111111111111110100111100000000000000000000011000110111
11111111111111111111110000110111111111111111111111100001111111110000000000000000000110101010101011111111111111111111011101101100111111111111111111110100100010000000000000000000000111010110111111111111111111111110111010010100000000000000000000000000010100011111111111111111110111101101111111111111111111111110011010011110111111111111111111110011110111010000000000000000000101001101100111111111111111111111001001011000000000000000000000011010011101110000000000000000000100111001010100000000000000000010001111011010
